00003a9b 0 0 0 0 0 0
000047f2 0 0 0 0 1 0
000055b0 0 0 0 0 2 0
0000636e 0 0 0 0 3 0
00007193 0 0 0 0 4 0
00007eea 0 0 0 0 5 0
00008c40 0 0 0 0 6 0
00009860 0 0 0 0 7 0
0000a3b1 0 0 0 0 8 0
0000adcc 0 0 0 0 9 0
0000b64a 0 0 0 0 10 0
0000bd28 0 0 0 0 11 0
0000c202 0 0 0 0 12 0
0000c53e 0 0 0 0 13 0
0000c60d 0 0 0 0 14 0
